<unk>	0
<s>	0
</s>	0
<0x00>	0
<0x01>	0
<0x02>	0
<0x03>	0
<0x04>	0
<0x05>	0
<0x06>	0
<0x07>	0
<0x08>	0
<0x09>	0
<0x0A>	0
<0x0B>	0
<0x0C>	0
<0x0D>	0
<0x0E>	0
<0x0F>	0
<0x10>	0
<0x11>	0
<0x12>	0
<0x13>	0
<0x14>	0
<0x15>	0
<0x16>	0
<0x17>	0
<0x18>	0
<0x19>	0
<0x1A>	0
<0x1B>	0
<0x1C>	0
<0x1D>	0
<0x1E>	0
<0x1F>	0
<0x20>	0
<0x21>	0
<0x22>	0
<0x23>	0
<0x24>	0
<0x25>	0
<0x26>	0
<0x27>	0
<0x28>	0
<0x29>	0
<0x2A>	0
<0x2B>	0
<0x2C>	0
<0x2D>	0
<0x2E>	0
<0x2F>	0
<0x30>	0
<0x31>	0
<0x32>	0
<0x33>	0
<0x34>	0
<0x35>	0
<0x36>	0
<0x37>	0
<0x38>	0
<0x39>	0
<0x3A>	0
<0x3B>	0
<0x3C>	0
<0x3D>	0
<0x3E>	0
<0x3F>	0
<0x40>	0
<0x41>	0
<0x42>	0
<0x43>	0
<0x44>	0
<0x45>	0
<0x46>	0
<0x47>	0
<0x48>	0
<0x49>	0
<0x4A>	0
<0x4B>	0
<0x4C>	0
<0x4D>	0
<0x4E>	0
<0x4F>	0
<0x50>	0
<0x51>	0
<0x52>	0
<0x53>	0
<0x54>	0
<0x55>	0
<0x56>	0
<0x57>	0
<0x58>	0
<0x59>	0
<0x5A>	0
<0x5B>	0
<0x5C>	0
<0x5D>	0
<0x5E>	0
<0x5F>	0
<0x60>	0
<0x61>	0
<0x62>	0
<0x63>	0
<0x64>	0
<0x65>	0
<0x66>	0
<0x67>	0
<0x68>	0
<0x69>	0
<0x6A>	0
<0x6B>	0
<0x6C>	0
<0x6D>	0
<0x6E>	0
<0x6F>	0
<0x70>	0
<0x71>	0
<0x72>	0
<0x73>	0
<0x74>	0
<0x75>	0
<0x76>	0
<0x77>	0
<0x78>	0
<0x79>	0
<0x7A>	0
<0x7B>	0
<0x7C>	0
<0x7D>	0
<0x7E>	0
<0x7F>	0
<0x80>	0
<0x81>	0
<0x82>	0
<0x83>	0
<0x84>	0
<0x85>	0
<0x86>	0
<0x87>	0
<0x88>	0
<0x89>	0
<0x8A>	0
<0x8B>	0
<0x8C>	0
<0x8D>	0
<0x8E>	0
<0x8F>	0
<0x90>	0
<0x91>	0
<0x92>	0
<0x93>	0
<0x94>	0
<0x95>	0
<0x96>	0
<0x97>	0
<0x98>	0
<0x99>	0
<0x9A>	0
<0x9B>	0
<0x9C>	0
<0x9D>	0
<0x9E>	0
<0x9F>	0
<0xA0>	0
<0xA1>	0
<0xA2>	0
<0xA3>	0
<0xA4>	0
<0xA5>	0
<0xA6>	0
<0xA7>	0
<0xA8>	0
<0xA9>	0
<0xAA>	0
<0xAB>	0
<0xAC>	0
<0xAD>	0
<0xAE>	0
<0xAF>	0
<0xB0>	0
<0xB1>	0
<0xB2>	0
<0xB3>	0
<0xB4>	0
<0xB5>	0
<0xB6>	0
<0xB7>	0
<0xB8>	0
<0xB9>	0
<0xBA>	0
<0xBB>	0
<0xBC>	0
<0xBD>	0
<0xBE>	0
<0xBF>	0
<0xC0>	0
<0xC1>	0
<0xC2>	0
<0xC3>	0
<0xC4>	0
<0xC5>	0
<0xC6>	0
<0xC7>	0
<0xC8>	0
<0xC9>	0
<0xCA>	0
<0xCB>	0
<0xCC>	0
<0xCD>	0
<0xCE>	0
<0xCF>	0
<0xD0>	0
<0xD1>	0
<0xD2>	0
<0xD3>	0
<0xD4>	0
<0xD5>	0
<0xD6>	0
<0xD7>	0
<0xD8>	0
<0xD9>	0
<0xDA>	0
<0xDB>	0
<0xDC>	0
<0xDD>	0
<0xDE>	0
<0xDF>	0
<0xE0>	0
<0xE1>	0
<0xE2>	0
<0xE3>	0
<0xE4>	0
<0xE5>	0
<0xE6>	0
<0xE7>	0
<0xE8>	0
<0xE9>	0
<0xEA>	0
<0xEB>	0
<0xEC>	0
<0xED>	0
<0xEE>	0
<0xEF>	0
<0xF0>	0
<0xF1>	0
<0xF2>	0
<0xF3>	0
<0xF4>	0
<0xF5>	0
<0xF6>	0
<0xF7>	0
<0xF8>	0
<0xF9>	0
<0xFA>	0
<0xFB>	0
<0xFC>	0
<0xFD>	0
<0xFE>	0
<0xFF>	0
▁t	-0
in	-1
▁a	-2
he	-3
▁s	-4
▁w	-5
▁m	-6
▁i	-7
ou	-8
re	-9
ha	-10
on	-11
▁b	-12
ing	-13
▁I	-14
▁to	-15
..	-16
▁f	-17
▁the	-18
or	-19
er	-20
▁g	-21
▁c	-22
ll	-23
▁d	-24
▁l	-25
▁n	-26
nd	-27
ay	-28
st	-29
▁y	-30
ee	-31
it	-32
om	-33
ve	-34
oo	-35
▁p	-36
an	-37
▁ha	-38
ow	-39
ot	-40
▁h	-41
▁you	-42
es	-43
at	-44
▁o	-45
ed	-46
ar	-47
is	-48
▁it	-49
▁my	-50
et	-51
▁and	-52
▁in	-53
!!	-54
hat	-55
gh	-56
▁on	-57
▁u	-58
ic	-59
▁e	-60
▁th	-61
...	-62
ad	-63
▁for	-64
as	-65
▁is	-66
▁T	-67
▁of	-68
le	-69
▁be	-70
ut	-71
ke	-72
▁S	-73
**	-74
▁he	-75
▁me	-76
▁M	-77
ac	-78
id	-79
▁re	-80
▁H	-81
en	-82
ght	-83
out	-84
ly	-85
ome	-86
▁that	-87
▁so	-88
ust	-89
▁st	-90
ch	-91
▁j	-92
ver	-93
▁W	-94
▁A	-95
ld	-96
▁have	-97
ight	-98
all	-99
▁go	-100
ill	-101
▁li	-102
▁lo	-103
am	-104
al	-105
ith	-106
un	-107
pp	-108
▁we	-109
▁B	-110
▁r	-111
▁k	-112
▁with	-113
se	-114
im	-115
ood	-116
day	-117
ter	-118
▁but	-119
▁do	-120
▁was	-121
▁D	-122
▁day	-123
▁wor	-124
op	-125
▁at	-126
her	-127
▁G	-128
▁an	-129
ir	-130
▁get	-131
ur	-132
▁not	-133
one	-134
ie	-135
▁L	-136
▁just	-137
▁can	-138
ks	-139
▁C	-140
▁fr	-141
ally	-142
▁N	-143
▁up	-144
▁out	-145
tt	-146
han	-147
▁ne	-148
▁all	-149
ould	-150
ore	-151
ry	-152
▁O	-153
▁sh	-154
king	-155
▁su	-156
ant	-157
ast	-158
▁are	-159
▁F	-160
▁now	-161
ack	-162
▁good	-163
▁this	-164
nt	-165
other	-166
▁Y	-167
il	-168
ion	-169
▁like	-170
ain	-171
ro	-172
:/	-173
▁-	-174
th	-175
ttp	-176
://	-177
▁http	-178
ent	-179
▁P	-180
▁_	-181
▁love	-182
ck	-183
▁work	-184
▁2	-185
▁your	-186
ea	-187
▁too	-188
▁J	-189
▁wh	-190
iss	-191
▁al	-192
▁no	-193
▁got	-194
▁kn	-195
▁don	-196
ake	-197
wit	-198
▁see	-199
ess	-200
ime	-201
our	-202
****	-203
▁today	-204
ting	-205
ce	-206
▁am	-207
▁ab	-208
us	-209
very	-210
ri	-211
▁****	-212
....	-213
▁some	-214
com	-215
▁wee	-216
ppy	-217
▁know	-218
▁as	-219
▁from	-220
eep	-221
ff	-222
um	-223
ink	-224
ra	-225
▁going	-226
ning	-227
ong	-228
▁aw	-229
▁want	-230
▁1	-231
eel	-232
art	-233
▁one	-234
▁Ha	-235
na	-236
▁time	-237
ate	-238
ish	-239
▁miss	-240
▁It	-241
ct	-242
▁back	-243
▁whe	-244
lo	-245
▁R	-246
▁there	-247
!!!	-248
ge	-249
▁what	-250
ice	-251
▁im	-252
▁will	-253
ind	-254
eed	-255
ers	-256
▁pl	-257
▁than	-258
▁did	-259
▁about	-260
▁feel	-261
▁really	-262
▁E	-263
??	-264
ab	-265
ope	-266
▁de	-267
ough	-268
hh	-269
▁mo	-270
▁any	-271
▁new	-272
ell	-273
oll	-274
▁off	-275
ig	-276
ook	-277
ul	-278
▁night	-279
▁had	-280
ick	-281
ine	-282
atch	-283
ool	-284
▁The	-285
▁com	-286
ite	-287
▁ex	-288
▁home	-289
▁sl	-290
reat	-291
ss	-292
uch	-293
eet	-294
ol	-295
and	-296
▁&	-297
row	-298
ving	-299
▁v	-300
▁think	-301
red	-302
▁ag	-303
au	-304
▁fun	-305
▁its	-306
ww	-307
▁lol	-308
ound	-309
▁much	-310
ame	-311
▁need	-312
▁they	-313
▁more	-314
▁U	-315
ak	-316
te	-317
▁(	-318
ard	-319
witter	-320
een	-321
▁'	-322
▁when	-323
▁here	-324
▁tw	-325
▁if	-326
aa	-327
▁sp	-328
▁#	-329
orning	-330
▁haha	-331
ear	-332
▁gu	-333
▁still	-334
▁has	-335
od	-336
mor	-337
▁or	-338
ies	-339
own	-340
▁how	-341
▁every	-342
▁her	-343
oy	-344
▁last	-345
iend	-346
hing	-347
▁well	-348
qu	-349
fe	-350
▁ton	-351
▁would	-352
ud	-353
ollow	-354
▁great	-355
▁My	-356
ait	-357
ady	-358
mm	-359
est	-360
ive	-361
▁co	-362
▁sleep	-363
!!!!	-364
▁con	-365
ace	-366
ous	-367
ide	-368
▁sa	-369
▁been	-370
▁Just	-371
morrow	-372
▁could	-373
▁le	-374
▁mom	-375
▁po	-376
OO	-377
▁bet	-378
ays	-379
▁sad	-380
orry	-381
▁tomorrow	-382
oooo	-383
▁hope	-384
ation	-385
▁watch	-386
▁ch	-387
▁she	-388
▁thing	-389
▁by	-390
xt	-391
▁4	-392
▁se	-393
▁You	-394
▁bad	-395
▁won	-396
▁3	-397
▁then	-398
▁tonight	-399
▁again	-400
▁pro	-401
ist	-402
ort	-403
ap	-404
▁wait	-405
▁morning	-406
ag	-407
▁us	-408
▁St	-409
▁Happy	-410
▁friend	-411
▁them	-412
▁over	-413
▁wish	-414
▁follow	-415
ub	-416
eah	-417
▁pe	-418
ile	-419
▁only	-420
▁happy	-421
up	-422
pic	-423
onna	-424
▁make	-425
os	-426
▁Than	-427
▁week	-428
▁right	-429
el	-430
▁en	-431
pl	-432
▁show	-433
▁:	-434
▁af	-435
kend	-436
ause	-437
▁...	-438
▁though	-439
uck	-440
▁fin	-441
▁He	-442
▁ph	-443
▁man	-444
▁pre	-445
others	-446
▁twitter	-447
▁K	-448
▁better	-449
itt	-450
▁weekend	-451
ass	-452
ven	-453
▁bed	-454
▁should	-455
▁Day	-456
00	-457
▁way	-458
ure	-459
▁nice	-460
ft	-461
ail	-462
▁ar	-463
▁bl	-464
▁say	-465
ys	-466
▁after	-467
lf	-468
▁gonna	-469
▁tr	-470
▁che	-471
ase	-472
ny	-473
ip	-474
are	-475
▁who	-476
ber	-477
▁very	-478
ople	-479
▁cl	-480
yy	-481
hed	-482
▁come	-483
ful	-484
▁does	-485
▁loo	-486
▁Good	-487
▁try	-488
▁sorry	-489
ew	-490
▁down	-491
chool	-492
▁hour	-493
▁were	-494
▁So	-495
▁people	-496
▁thanks	-497
▁oh	-498
▁qu	-499
witpic	-500
vie	-501
iday	-502
omet	-503
ble	-504
aking	-505
▁head	-506
▁play	-507
ob	-508
ought	-509
irl	-510
▁LO	-511
▁br	-512
▁why	-513
▁school	-514
▁pr	-515
▁But	-516
▁didn	-517
▁next	-518
ree	-519
▁long	-520
twitpic	-521
ull	-522
▁him	-523
az	-524
▁getting	-525
▁That	-526
ug	-527
▁sc	-528
▁Th	-529
▁pic	-530
my	-531
ue	-532
▁days	-533
▁tho	-534
esome	-535
be	-536
▁.	-537
▁x	-538
▁dont	-539
ts	-540
▁sw	-541
ER	-542
em	-543
▁Oh	-544
cks	-545
▁ro	-546
▁year	-547
to	-548
thing	-549
▁sun	-550
▁look	-551
▁No	-552
▁`	-553
iz	-554
ans	-555
ade	-556
▁V	-557
▁Thanks	-558
age	-559
▁part	-560
ittle	-561
▁best	-562
ired	-563
▁soon	-564
▁dr	-565
ia	-566
▁And	-567
▁bec	-568
▁ad	-569
▁may	-570
▁yeah	-571
▁call	-572
▁somet	-573
▁gr	-574
▁mon	-575
▁@	-576
▁ok	-577
▁ear	-578
▁hate	-579
▁start	-580
alk	-581
ater	-582
▁take	-583
so	-584
▁tweet	-585
▁little	-586
▁awesome	-587
ne	-588
▁*	-589
ways	-590
pt	-591
ress	-592
ci	-593
▁being	-594
irst	-595
ment	-596
IN	-597
anna	-598
▁5	-599
ach	-600
ost	-601
▁rain	-602
rd	-603
▁even	-604
▁girl	-605
ity	-606
▁te	-607
▁hur	-608
▁fl	-609
ouse	-610
lease	-611
av	-612
sh	-613
▁ur	-614
▁ac	-615
▁sure	-616
▁never	-617
pe	-618
▁?	-619
▁!	-620
▁his	-621
▁wr	-622
ather	-623
▁having	-624
▁watching	-625
▁<	-626
akes	-627
▁let	-628
tin	-629
uff	-630
▁un	-631
▁sick	-632
▁working	-633
urn	-634
▁car	-635
ream	-636
▁app	-637
ah	-638
▁We	-639
▁cool	-640
▁di	-641
ond	-642
ating	-643
▁find	-644
▁tired	-645
▁sm	-646
▁done	-647
ready	-648
per	-649
▁min	-650
▁doing	-651
▁LOL	-652
▁bab	-653
▁list	-654
▁hours	-655
▁because	-656
▁Not	-657
▁our	-658
ooo	-659
▁lot	-660
joy	-661
EE	-662
fore	-663
ious	-664
▁first	-665
▁wanna	-666
▁guys	-667
▁everyone	-668
ove	-669
▁cant	-670
▁always	-671
▁already	-672
rr	-673
ute	-674
OT	-675
ang	-676
igh	-677
▁Wh	-678
▁friends	-679
ng	-680
int	-681
▁old	-682
▁Mother	-683
▁feeling	-684
▁lea	-685
▁life	-686
▁What	-687
▁movie	-688
act	-689
reak	-690
▁act	-691
▁before	-692
LL	-693
▁bit	-694
bit	-695
self	-696
▁happ	-697
▁keep	-698
▁something	-699
AY	-700
ually	-701
▁song	-702
▁phone	-703
imes	-704
▁live	-705
▁<3	-706
▁TH	-707
haha	-708
▁ever	-709
▁read	-710
▁thought	-711
▁Is	-712
ored	-713
tty	-714
▁where	-715
ta	-716
▁Fr	-717
▁Go	-718
ms	-719
▁chan	-720
▁another	-721
lp	-722
▁comp	-723
▁hard	-724
▁yet	-725
/4	-726
▁Can	-727
▁exc	-728
▁made	-729
ord	-730
unch	-731
gg	-732
ited	-733
▁house	-734
▁ready	-735
▁dis	-736
▁into	-737
get	-738
▁gl	-739
▁away	-740
eeee	-741
▁left	-742
▁mothers	-743
?!	-744
ily	-745
oke	-746
url	-747
▁late	-748
ire	-749
hes	-750
ner	-751
▁Hope	-752
▁Twitter	-753
▁sha	-754
▁6	-755
▁,	-756
▁bu	-757
▁em	-758
inking	-759
▁job	-760
der	-761
▁tri	-762
azing	-763
▁kind	-764
▁id	-765
▁big	-766
▁cha	-767
▁hot	-768
▁other	-769
ester	-770
▁kid	-771
ich	-772
▁bro	-773
▁luck	-774
▁sucks	-775
▁;	-776
▁rem	-777
▁..	-778
▁doesn	-779
▁hear	-780
▁help	-781
▁same	-782
ward	-783
▁happen	-784
▁please	-785
▁thank	-786
▁pretty	-787
side	-788
▁bus	-789
▁end	-790
bl	-791
▁HA	-792
▁Im	-793
▁In	-794
▁fam	-795
ix	-796
▁ya	-797
irth	-798
▁How	-799
▁run	-800
night	-801
▁trying	-802
no	-803
▁Ch	-804
▁Re	-805
▁real	-806
▁while	-807
me	-808
ork	-809
▁went	-810
ii	-811
ount	-812
▁mus	-813
▁guess	-814
▁those	-815
ince	-816
▁hair	-817
▁said	-818
irthday	-819
▁mother	-820
tiny	-821
▁Now	-822
▁put	-823
ark	-824
ntil	-825
▁amazing	-826
ars	-827
ath	-828
here	-829
▁May	-830
▁give	-831
▁bored	-832
▁check	-833
▁missed	-834
aw	-835
ody	-836
io	-837
ise	-838
▁Love	-839
▁things	-840
▁Have	-841
▁talk	-842
▁tell	-843
ma	-844
▁cr	-845
nder	-846
ening	-847
▁early	-848
▁until	-849
ox	-850
able	-851
oney	-852
▁bot	-853
▁This	-854
▁stuff	-855
▁thr	-856
▁two	-857
▁post	-858
ON	-859
ary	-860
www	-861
▁saw	-862
.....	-863
▁break	-864
▁later	-865
tinyurl	-866
esterday	-867
▁8	-868
▁=	-869
▁10	-870
▁dri	-871
▁yes	-872
▁Star	-873
▁party	-874
▁someone	-875
EA	-876
log	-877
opp	-878
▁clo	-879
▁looks	-880
ank	-881
▁Al	-882
▁looking	-883
ave	-884
lie	-885
▁sound	-886
ated	-887
AN	-888
tw	-889
▁To	-890
ign	-891
▁Mon	-892
▁ser	-893
▁Well	-894
▁star	-895
▁yesterday	-896
▁boy	-897
▁cra	-898
▁enjoy	-899
▁coming	-900
ason	-901
most	-902
ture	-903
▁per	-904
▁around	-905
▁weather	-906
▁On	-907
▁few	-908
▁gone	-909
▁since	-910
▁hun	-911
iting	-912
▁also	-913
▁till	-914
▁actually	-915
▁mean	-916
▁music	-917
▁world	-918
▁spe	-919
▁7	-920
▁boo	-921
▁prob	-922
sp	-923
hhh	-924
ren	-925
▁hey	-926
▁myself	-927
▁anything	-928
co	-929
▁If	-930
aaaa	-931
▁baby	-932
▁nothing	-933
▁makes	-934
▁month	-935
ets	-936
oup	-937
OOOO	-938
ffee	-939
▁acc	-940
▁cle	-941
▁hell	-942
▁leave	-943
????	-944
nday	-945
▁cold	-946
▁most	-947
▁such	-948
▁class	-949
▁wonder	-950
ph	-951
ian	-952
▁far	-953
OU	-954
by	-955
oc	-956
ats	-957
come	-958
ever	-959
▁supp	-960
ES	-961
ished	-962
▁Going	-963
▁found	-964
zy	-965
▁Hey	-966
ike	-967
▁use	-968
▁lost	-969
ash	-970
ance	-971
book	-972
▁excited	-973
ax	-974
if	-975
anc	-976
▁Got	-977
▁Yeah	-978
▁mess	-979
▁stay	-980
▁hurts	-981
▁finally	-982
▁birthday	-983
/6	-984
dd	-985
ably	-986
upid	-987
▁Its	-988
▁fav	-989
inner	-990
▁least	-991
▁maybe	-992
ps	-993
▁summ	-994
▁broke	-995
▁might	-996
▁money	-997
▁forward	-998
lieve	-999
▁must	-1000
▁family	-1001
▁buy	-1002
▁sit	-1003
▁face	-1004
▁glad	-1005
▁stop	-1006
▁Do	-1007
ully	-1008
▁Why	-1009
▁eat	-1010
▁believe	-1011
▁picture	-1012
VE	-1013
cer	-1014
les	-1015
tern	-1016
▁cry	-1017
▁book	-1018
▁many	-1019
▁lunch	-1020
▁stud	-1021
▁sweet	-1022
▁making	-1023
aut	-1024
▁isn	-1025
ect	-1026
got	-1027
line	-1028
▁their	-1029
▁Friday	-1030
air	-1031
▁;)	-1032
▁el	-1033
load	-1034
▁des	-1035
▁eve	-1036
alking	-1037
▁times	-1038
ING	-1039
hen	-1040
ache	-1041
rand	-1042
▁add	-1043
▁funny	-1044
▁through	-1045
uz	-1046
xx	-1047
mer	-1048
▁phot	-1049
▁room	-1050
▁vide	-1051
▁summer	-1052
og	-1053
urk	-1054
iful	-1055
less	-1056
▁rep	-1057
▁cause	-1058
ale	-1059
ier	-1060
▁tot	-1061
▁free	-1062
▁coffee	-1063
▁without	-1064
but	-1065
ird	-1066
pen	-1067
ude	-1068
▁Br	-1069
▁Me	-1070
▁hang	-1071
▁place	-1072
▁almost	-1073
ep	-1074
orm	-1075
▁Tw	-1076
atur	-1077
▁dad	-1078
▁tra	-1079
▁food	-1080
▁game	-1081
▁Thank	-1082
▁Monday	-1083
30	-1084
OR	-1085
pr	-1086
▁9	-1087
▁Be	-1088
▁sk	-1089
ions	-1090
▁Mom	-1091
▁waiting	-1092
OM	-1093
not	-1094
ted	-1095
way	-1096
▁At	-1097
▁Yes	-1098
▁pain	-1099
▁Morning	-1100
▁everything	-1101
HA	-1102
ead	-1103
body	-1104
▁beaut	-1105
▁thats	-1106
▁wanted	-1107
▁exam	-1108
▁dream	-1109
▁Mothers	-1110
▁mum	-1111
erson	-1112
▁They	-1113
▁cute	-1114
▁inst	-1115
▁sing	-1116
▁wasn	-1117
bs	-1118
iv	-1119
nn	-1120
ory	-1121
ched	-1122
more	-1123
▁rel	-1124
▁poor	-1125
atching	-1126
▁enough	-1127
br	-1128
fr	-1129
ery	-1130
ates	-1131
▁sur	-1132
eeting	-1133
▁dinner	-1134
man	-1135
oot	-1136
▁Sh	-1137
▁jo	-1138
arent	-1139
▁kids	-1140
▁under	-1141
▁weeks	-1142
▁whole	-1143
▁outside	-1144
▁del	-1145
▁move	-1146
▁turn	-1147
▁gotta	-1148
▁thinking	-1149
???	-1150
vers	-1151
▁She	-1152
fully	-1153
plurk	-1154
▁rest	-1155
▁missing	-1156
ote	-1157
land	-1158
▁def	-1159
▁didnt	-1160
▁which	-1161
OW	-1162
▁dog	-1163
▁upd	-1164
▁win	-1165
▁wow	-1166
▁followers	-1167
ors	-1168
▁THE	-1169
▁plan	-1170
▁seen	-1171
▁woke	-1172
▁clean	-1173
▁playing	-1174
▁finished	-1175
▁probably	-1176
ild	-1177
cial	-1178
ness	-1179
▁Don	-1180
ither	-1181
▁Sorry	-1182
▁soooo	-1183
ese	-1184
ift	-1185
▁rec	-1186
▁Haha	-1187
▁wants	-1188
▁totally	-1189
dy	-1190
orn	-1191
the	-1192
reen	-1193
rent	-1194
▁aww	-1195
▁hit	-1196
▁ugh	-1197
▁mine	-1198
▁says	-1199
▁super	-1200
▁anyone	-1201
▁person	-1202
▁beautiful	-1203
▁Su	-1204
▁yay	-1205
▁Wish	-1206
PP	-1207
rek	-1208
▁OM	-1209
▁ago	-1210
▁dec	-1211
▁fail	-1212
▁send	-1213
▁haven	-1214
rs	-1215
ty	-1216
ins	-1217
▁Had	-1218
▁ill	-1219
▁own	-1220
▁else	-1221
gr	-1222
eal	-1223
ked	-1224
fect	-1225
press	-1226
▁both	-1227
opping	-1228
▁remem	-1229
▁years	-1230
▁anymore	-1231
zz	-1232
▁ke	-1233
▁wel	-1234
▁hand	-1235
▁these	-1236
▁Ok	-1237
rest	-1238
▁listening	-1239
▁wat	-1240
▁took	-1241
aturday	-1242
▁eating	-1243
▁proble	-1244
▁stupid	-1245
une	-1246
▁hol	-1247
▁full	-1248
▁kill	-1249
▁tick	-1250
▁lovely	-1251
▁following	-1252
AT	-1253
de	-1254
▁sec	-1255
oring	-1256
▁meet	-1257
▁sooo	-1258
▁office	-1259
▁sounds	-1260
als	-1261
app	-1262
ife	-1263
ube	-1264
▁All	-1265
ik	-1266
uu	-1267
ence	-1268
ried	-1269
▁Ugh	-1270
▁set	-1271
fm	-1272
ode	-1273
ons	-1274
▁Fin	-1275
▁OMG	-1276
▁mar	-1277
▁name	-1278
ternet	-1279
▁kinda	-1280
▁stuck	-1281
▁forgot	-1282
▁friday	-1283
▁)	-1284
arm	-1285
old	-1286
▁om	-1287
hhhh	-1288
▁char	-1289
▁diff	-1290
▁gets	-1291
▁idea	-1292
▁video	-1293
▁headache	-1294
HH	-1295
IT	-1296
ock	-1297
ont	-1298
▁An	-1299
fort	-1300
utes	-1301
▁Get	-1302
▁....	-1303
▁suck	-1304
▁welcome	-1305
cl	-1306
amp	-1307
▁!!	-1308
▁ey	-1309
ross	-1310
view	-1311
yyyy	-1312
▁able	-1313
HER	-1314
ugs	-1315
ower	-1316
▁Miss	-1317
▁came	-1318
▁mind	-1319
▁used	-1320
▁wrong	-1321
▁comput	-1322
▁couldn	-1323
AA	-1324
ED	-1325
ND	-1326
ney	-1327
ues	-1328
▁compl	-1329
▁minutes	-1330
gry	-1331
▁sn	-1332
ongr	-1333
port	-1334
▁crazy	-1335
▁Aw	-1336
▁Ex	-1337
▁Hi	-1338
inks	-1339
ying	-1340
▁Off	-1341
▁guy	-1342
▁concer	-1343
▁monday	-1344
CK	-1345
ley	-1346
▁Jo	-1347
ding	-1348
▁Yay	-1349
▁cut	-1350
▁high	-1351
▁lear	-1352
▁short	-1353
▁tweets	-1354
!!!!!!!!	-1355
▁shopping	-1356
ens	-1357
oud	-1358
▁TO	-1359
fast	-1360
time	-1361
▁hop	-1362
▁lau	-1363
▁mid	-1364
where	-1365
▁hehe	-1366
▁heart	-1367
▁hahaha	-1368
▁taking	-1369
▁remember	-1370
UT	-1371
tr	-1372
vel	-1373
▁Ph	-1374
▁Pl	-1375
▁bo	-1376
▁hu	-1377
aying	-1378
▁busy	-1379
▁card	-1380
▁trip	-1381
▁alone	-1382
▁either	-1383
▁talking	-1384
ST	-1385
PPY	-1386
gle	-1387
vis	-1388
you	-1389
▁En	-1390
ouch	-1391
ummy	-1392
▁DAY	-1393
▁yea	-1394
ately	-1395
▁hurt	-1396
▁okay	-1397
▁pass	-1398
ations	-1399
▁drive	-1400
--	-1401
cc	-1402
sw	-1403
top	-1404
▁SO	-1405
leep	-1406
▁God	-1407
▁YOU	-1408
▁cuz	-1409
▁blog	-1410
▁cour	-1411
▁inte	-1412
▁wont	-1413
▁There	-1414
▁Sunday	-1415
▁online	-1416
▁evening	-1417
its	-1418
unk	-1419
▁iP	-1420
work	-1421
▁Loo	-1422
▁str	-1423
aught	-1424
▁Back	-1425
▁once	-1426
▁prom	-1427
iously	-1428
▁called	-1429
▁instead	-1430
▁Watching	-1431
VER	-1432
eee	-1433
ger	-1434
▁ep	-1435
▁hi	-1436
cept	-1437
▁Che	-1438
▁New	-1439
▁Will	-1440
▁grad	-1441
▁half	-1442
▁news	-1443
▁ones	-1444
▁word	-1445
▁quite	-1446
▁seems	-1447
▁change	-1448
po	-1449
▁X	-1450
att	-1451
ipp	-1452
rew	-1453
ult	-1454
ump	-1455
▁De	-1456
ball	-1457
ling	-1458
▁hor	-1459
iness	-1460
▁less	-1461
▁drink	-1462
▁email	-1463
▁favor	-1464
▁girls	-1465
▁spend	-1466
ym	-1467
ama	-1468
ual	-1469
ved	-1470
ster	-1471
▁Did	-1472
▁blo	-1473
▁fine	-1474
▁awake	-1475
▁close	-1476
▁heard	-1477
▁moment	-1478
▁seeing	-1479
▁computer	-1480
▁IT	-1481
▁ann	-1482
▁fre	-1483
▁care	-1484
▁dude	-1485
▁goes	-1486
▁moms	-1487
▁test	-1488
▁true	-1489
▁Today	-1490
▁chill	-1491
med	-1492
▁12	-1493
ings	-1494
ject	-1495
▁Wow	-1496
▁mil	-1497
▁til	-1498
▁coup	-1499
▁past	-1500
▁Still	-1501
▁concert	-1502
osed	-1503
▁god	-1504
▁ice	-1505
▁vis	-1506
OTHER	-1507
▁Feel	-1508
▁awww	-1509
▁coll	-1510
▁fall	-1511
▁wind	-1512
▁interest	-1513
/~	-1514
ib	-1515
ici	-1516
izz	-1517
mmm	-1518
ows	-1519
▁@_	-1520
▁ve	-1521
sent	-1522
▁Any	-1523
▁Wor	-1524
▁ask	-1525
▁told	-1526
▁****.	-1527
▁Great	-1528
▁loved	-1529
▁hungry	-1530
▁reason	-1531
AM	-1532
ken	-1533
ton	-1534
blip	-1535
rist	-1536
▁cur	-1537
▁omg	-1538
▁dead	-1539
▁HAPPY	-1540
▁breakfast	-1541
IS	-1542
irt	-1543
ocol	-1544
▁NOT	-1545
▁fig	-1546
▁soo	-1547
▁clos	-1548
▁lots	-1549
▁site	-1550
▁text	-1551
▁running	-1552
33	-1553
▁z	-1554
any	-1555
che	-1556
ages	-1557
ible	-1558
▁For	-1559
▁fan	-1560
▁ret	-1561
ition	-1562
rible	-1563
▁Your	-1564
▁MOTHER	-1565
▁account	-1566
▁watched	-1567
▁wonderful	-1568
▁air	-1569
▁lil	-1570
inite	-1571
▁cont	-1572
▁epis	-1573
▁tour	-1574
fortun	-1575
▁feels	-1576
▁couple	-1577
▁months	-1578
AR	-1579
bo	-1580
/67	-1581
ete	-1582
ics	-1583
ina	-1584
▁Sp	-1585
vies	-1586
▁Too	-1587
▁eas	-1588
▁fell	-1589
▁open	-1590
▁slow	-1591
▁Enjoy	-1592
▁needs	-1593
▁tried	-1594
▁bought	-1595
▁finish	-1596
▁favorite	-1597
▁sleeping	-1598
LLY	-1599
ana	-1600
ose	-1601
raw	-1602
ush	-1603
▁Gu	-1604
▁Un	-1605
▁ed	-1606
▁Lol	-1607
▁cat	-1608
▁ind	-1609
▁res	-1610
▁wed	-1611
▁Hell	-1612
▁conf	-1613
▁wake	-1614
initely	-1615
▁listen	-1616
▁holiday	-1617
▁started	-1618
▁happened	-1619
▁starting	-1620
go	-1621
kk	-1622
▁/	-1623
/~5	-1624
ten	-1625
▁Am	-1626
▁Bl	-1627
▁av	-1628
▁near	-1629
▁rock	-1630
▁sign	-1631
▁wear	-1632
▁learn	-1633
▁reply	-1634
▁course	-1635
▁perfect	-1636
▁problem	-1637
▁internet	-1638
▁Z	-1639
ied	-1640
part	-1641
pect	-1642
▁fil	-1643
▁leg	-1644
▁Trek	-1645
▁Wars	-1646
▁sist	-1647
▁diffe	-1648
▁loves	-1649
▁relax	-1650
▁train	-1651
▁raining	-1652
▁supposed	-1653
pm	-1654
ged	-1655
hone	-1656
ones	-1657
▁inv	-1658
▁cook	-1659
▁fast	-1660
▁pick	-1661
▁sore	-1662
ocolate	-1663
▁anyway	-1664
▁second	-1665
▁writing	-1666
/2	-1667
GH	-1668
oes	-1669
vin	-1670
ines	-1671
oint	-1672
▁cam	-1673
▁top	-1674
!!!!!	-1675
atter	-1676
▁twit	-1677
▁Maybe	-1678
▁shower	-1679
▁Finally	-1680
du	-1681
uss	-1682
▁Sw	-1683
▁ce	-1684
▁Sad	-1685
▁See	-1686
▁mad	-1687
▁reg	-1688
▁ter	-1689
ading	-1690
▁Time	-1691
ealous	-1692
▁Night	-1693
▁catch	-1694
▁forget	-1695
▁movies	-1696
▁sitting	-1697
▁tickets	-1698
AS	-1699
wh	-1700
wn	-1701
ane	-1702
bum	-1703
ced	-1704
lic	-1705
ots	-1706
▁	-1707
e	-1708
o	-1709
t	-1710
a	-1711
i	-1712
n	-1713
s	-1714
h	-1715
r	-1716
l	-1717
d	-1718
u	-1719
y	-1720
m	-1721
g	-1722
.	-1723
w	-1724
c	-1725
p	-1726
f	-1727
b	-1728
k	-1729
!	-1730
I	-1731
v	-1732
`	-1733
,	-1734
T	-1735
*	-1736
S	-1737
A	-1738
/	-1739
?	-1740
M	-1741
H	-1742
O	-1743
j	-1744
E	-1745
L	-1746
W	-1747
N	-1748
x	-1749
D	-1750
B	-1751
-	-1752
G	-1753
:	-1754
C	-1755
Y	-1756
R	-1757
P	-1758
F	-1759
z	-1760
2	-1761
0	-1762
1	-1763
_	-1764
U	-1765
3	-1766
J	-1767
'	-1768
4	-1769
K	-1770
)	-1771
5	-1772
&	-1773
(	-1774
V	-1775
q	-1776
6	-1777
#	-1778
8	-1779
7	-1780
9	-1781
;	-1782
<	-1783
@	-1784
=	-1785
X	-1786
Z	-1787
~	-1788
